12 0c e6 1c 25 e9 dc 2a 17 e2 f2 fd 14 00 f8 d2 fa 03 24 ef fe 17 fe fd de f1 d6 f4 e9 01 1c 05 ee 10 0a 01 e4 0e 00 f5 05 04 0b 07 16 0b 00 0e
e1 21 1d f5 eb 2b 0e dd f9 30 d5 e9 06 fa 0d 17 19 ea cf f5 04 fc ff e0 fc fd e2 de 17 ec f3 1d 02 f3 0f 22 ef e5 17 17 d8 f6 1b 0b e5 18 13 0c
02 21 2d 33 db ed fb fd e8 cc d4 cd 1e e4 1e 26 1c 13 f7 e7 2e 23 fe f8 11 23 0a 2f fb ed 0b 2f f9 e6 ef e9 fd 16 02 1a 15 11 03 20 1e 1e 07 fd
fa 1d 3d 11 d0 f8 da ef c7 0d 34 34 0f d5 fb ed 44 09 f2 09 1b 13 15 0c 09 08 0e 02 1e 0c 0a fc f6 f5 07 0d fb 01 fd f0 18 09 d9 e8 0f 01 f5 fc
4b 05 01 1a 12 d5 3b e5 14 1a 00 e2 03 fd 09 17 e2 e3 bd d8 fe 04 e0 de 27 07 0c 2c 09 04 00 06 0f fe 08 0b 0f fa 01 0e f9 f1 e9 f5 ca df f9 0d
fd ef b6 bf fa 11 f6 f0 e9 1f 1a 28 02 e9 fc e5 0a 1a 19 4c e8 ff 1d 2e 0d 1e f9 08 30 04 01 e6 0f 1b 0f dd 16 0b ff d8 0f fc ea f8 17 fd 13 28
05 d2 a7 c3 0d f8 f1 0b 31 0c 24 25 10 1e 11 01 ef dd 10 0c d9 e4 f9 29 c8 f4 0c 0f e3 04 0a fc ea f0 01 0f ec 14 fa 26 0b 0f 16 26 22 13 fb e8
2f 19 33 00 04 e8 31 09 00 09 ea eb e4 02 f4 dd 24 14 0e 1b 27 26 0e 0a 0c fc 09 26 f4 ea 00 fa fa ed 05 03 dd df f9 f5 fb fa 17 f7 bd e7 00 ed
e6 e2 f4 1c f6 45 e1 eb 18 e8 ea 0f e5 13 13 07 ff 14 15 fd f5 f6 fc 0e f8 04 04 00 e9 ea f6 fd 2b 25 e8 09 22 12 01 0d f9 10 ff f4 25 0d ed ec
f1 e3 11 f4 ff 12 33 16 12 0d 09 0a ee 01 f0 0c 04 10 2a ed fd f6 f5 f6 fa 12 fd d6 04 29 e2 d0 00 fc ff 18 2e 17 de 10 1f bf d8 f7 cc cf 03 14