0a 06 fd f7 f4
06 13 ed f0 eb
e9 ff e3 ef 0b
e4 ea ea 17 42
e6 12 26 21 13
ef ed e5 f5 fa
1e ff fe 07 f6
1a 0c 3c 1d ec
1d 39 3a 19 ed
03 fd 0d f6 f4
f5 f3 0b f1 f9
f8 02 05 15 06
00 09 23 29 1d
e2 fd 25 24 13
e6 e6 0c 1d 0a
16 ed f1 eb df
05 0a 13 17 16
1a 18 02 06 0a
21 0a f8 e1 e6
f6 f4 e4 dc ee
dc bd b6 c8 cd
f9 de c2 cc d8
0c 2c 47 26 00
29 2b 59 43 25
ff 00 ed e0 f7
fd fe f7 fc f9
ec f5 fa ff 04
eb e0 da ea ec
f8 e3 f1 fe ec
fc f4 e8 e5 ef
f6 e2 db fb 0d
f0 fb 04 2b 12
1a 05 07 01 fb
37 12 07 05 1c
2a fe 0b 0a ec
e4 f6 00 ec ee
ef ff 12 e2 0a
f0 fe 37 e7 c6
da ef 27 24 c3
e8 f7 fe 39 71
07 0a 05 fa ea
07 0d 09 0c f2
f8 07 19 01 fb
07 fd 1b ee e1
08 ef 06 df d8